<unk>	0
<s>	0
</s>	0
<pad>	0
<0x00>	0
<0x01>	0
<0x02>	0
<0x03>	0
<0x04>	0
<0x05>	0
<0x06>	0
<0x07>	0
<0x08>	0
<0x09>	0
<0x0A>	0
<0x0B>	0
<0x0C>	0
<0x0D>	0
<0x0E>	0
<0x0F>	0
<0x10>	0
<0x11>	0
<0x12>	0
<0x13>	0
<0x14>	0
<0x15>	0
<0x16>	0
<0x17>	0
<0x18>	0
<0x19>	0
<0x1A>	0
<0x1B>	0
<0x1C>	0
<0x1D>	0
<0x1E>	0
<0x1F>	0
<0x20>	0
<0x21>	0
<0x22>	0
<0x23>	0
<0x24>	0
<0x25>	0
<0x26>	0
<0x27>	0
<0x28>	0
<0x29>	0
<0x2A>	0
<0x2B>	0
<0x2C>	0
<0x2D>	0
<0x2E>	0
<0x2F>	0
<0x30>	0
<0x31>	0
<0x32>	0
<0x33>	0
<0x34>	0
<0x35>	0
<0x36>	0
<0x37>	0
<0x38>	0
<0x39>	0
<0x3A>	0
<0x3B>	0
<0x3C>	0
<0x3D>	0
<0x3E>	0
<0x3F>	0
<0x40>	0
<0x41>	0
<0x42>	0
<0x43>	0
<0x44>	0
<0x45>	0
<0x46>	0
<0x47>	0
<0x48>	0
<0x49>	0
<0x4A>	0
<0x4B>	0
<0x4C>	0
<0x4D>	0
<0x4E>	0
<0x4F>	0
<0x50>	0
<0x51>	0
<0x52>	0
<0x53>	0
<0x54>	0
<0x55>	0
<0x56>	0
<0x57>	0
<0x58>	0
<0x59>	0
<0x5A>	0
<0x5B>	0
<0x5C>	0
<0x5D>	0
<0x5E>	0
<0x5F>	0
<0x60>	0
<0x61>	0
<0x62>	0
<0x63>	0
<0x64>	0
<0x65>	0
<0x66>	0
<0x67>	0
<0x68>	0
<0x69>	0
<0x6A>	0
<0x6B>	0
<0x6C>	0
<0x6D>	0
<0x6E>	0
<0x6F>	0
<0x70>	0
<0x71>	0
<0x72>	0
<0x73>	0
<0x74>	0
<0x75>	0
<0x76>	0
<0x77>	0
<0x78>	0
<0x79>	0
<0x7A>	0
<0x7B>	0
<0x7C>	0
<0x7D>	0
<0x7E>	0
<0x7F>	0
<0x80>	0
<0x81>	0
<0x82>	0
<0x83>	0
<0x84>	0
<0x85>	0
<0x86>	0
<0x87>	0
<0x88>	0
<0x89>	0
<0x8A>	0
<0x8B>	0
<0x8C>	0
<0x8D>	0
<0x8E>	0
<0x8F>	0
<0x90>	0
<0x91>	0
<0x92>	0
<0x93>	0
<0x94>	0
<0x95>	0
<0x96>	0
<0x97>	0
<0x98>	0
<0x99>	0
<0x9A>	0
<0x9B>	0
<0x9C>	0
<0x9D>	0
<0x9E>	0
<0x9F>	0
<0xA0>	0
<0xA1>	0
<0xA2>	0
<0xA3>	0
<0xA4>	0
<0xA5>	0
<0xA6>	0
<0xA7>	0
<0xA8>	0
<0xA9>	0
<0xAA>	0
<0xAB>	0
<0xAC>	0
<0xAD>	0
<0xAE>	0
<0xAF>	0
<0xB0>	0
<0xB1>	0
<0xB2>	0
<0xB3>	0
<0xB4>	0
<0xB5>	0
<0xB6>	0
<0xB7>	0
<0xB8>	0
<0xB9>	0
<0xBA>	0
<0xBB>	0
<0xBC>	0
<0xBD>	0
<0xBE>	0
<0xBF>	0
<0xC0>	0
<0xC1>	0
<0xC2>	0
<0xC3>	0
<0xC4>	0
<0xC5>	0
<0xC6>	0
<0xC7>	0
<0xC8>	0
<0xC9>	0
<0xCA>	0
<0xCB>	0
<0xCC>	0
<0xCD>	0
<0xCE>	0
<0xCF>	0
<0xD0>	0
<0xD1>	0
<0xD2>	0
<0xD3>	0
<0xD4>	0
<0xD5>	0
<0xD6>	0
<0xD7>	0
<0xD8>	0
<0xD9>	0
<0xDA>	0
<0xDB>	0
<0xDC>	0
<0xDD>	0
<0xDE>	0
<0xDF>	0
<0xE0>	0
<0xE1>	0
<0xE2>	0
<0xE3>	0
<0xE4>	0
<0xE5>	0
<0xE6>	0
<0xE7>	0
<0xE8>	0
<0xE9>	0
<0xEA>	0
<0xEB>	0
<0xEC>	0
<0xED>	0
<0xEE>	0
<0xEF>	0
<0xF0>	0
<0xF1>	0
<0xF2>	0
<0xF3>	0
<0xF4>	0
<0xF5>	0
<0xF6>	0
<0xF7>	0
<0xF8>	0
<0xF9>	0
<0xFA>	0
<0xFB>	0
<0xFC>	0
<0xFD>	0
<0xFE>	0
<0xFF>	0
on	-0
or	-1
**	-2
in	-3
th	-4
yth	-5
ython	-6
Python	-7
▁Python	-8
el	-9
re	-10
at	-11
▁a	-12
文件	-13
▁**	-14
le	-15
lo	-16
▁-	-17
使用	-18
用户	-19
er	-20
学习	-21
ion	-22
de	-23
一个	-24
▁i	-25
▁用户	-26
ello	-27
▁用户想	-28
ar	-29
▁p	-30
创建	-31
工具	-32
▁re	-33
al	-34
▁f	-35
内容	-36
搜索	-37
▁工具	-38
ation	-39
``	-40
▁s	-41
):	-42
bs	-43
en	-44
qu	-45
代码	-46
erv	-47
obs	-48
▁文件	-49
observ	-50
observation	-51
▁'	-52
▁=	-53
获取	-54
ing	-55
AI	-56
ni	-57
st	-58
ur	-59
▁O	-60
▁m	-61
▁{	-62
▁—	-63
▁的	-64
完成	-65
结果	-66
读取	-67
递归	-68
int	-69
ore	-70
ort	-71
▁de	-72
▁pr	-73
')	-74
ch	-75
ic	-76
▁c	-77
▁h	-78
:**	-79
mni	-80
▁AI	-81
▁in	-82
Core	-83
▁def	-84
Hello	-85
▁Omni	-86
▁OmniCore	-87
('	-88
py	-89
rr	-90
te	-91
tx	-92
▁e	-93
▁w	-94
一种	-95
执行	-96
数据	-97
知识	-98
返回	-99
需要	-100
项目	-101
txt	-102
▁print	-103
()	-104
__	-105
an	-106
ec	-107
iv	-108
ks	-109
ld	-110
▁W	-111
▁n	-112
▁o	-113
▁x	-114
▁你	-115
▁助	-116
一下	-117
什么	-118
函数	-119
成功	-120
排序	-121
目录	-122
编程	-123
网页	-124
```	-125
ent	-126
ile	-127
tur	-128
▁if	-129
▁le	-130
▁助手	-131
▁搜索	-132
▁递归	-133
已获取	-134
是一种	-135
ator	-136
orld	-137
turn	-138
▁```	-139
▁arr	-140
python	-141
▁return	-142
ac	-143
ge	-144
ig	-145
ot	-146
▁[	-147
▁这	-148
可以	-149
基准	-150
安装	-151
当前	-152
机器	-153
算法	-154
装饰	-155
**:	-156
ain	-157
arn	-158
elf	-159
▁项目	-160
装饰器	-161
file	-162
ivot	-163
▁for	-164
创建一个	-165
需要使用	-166
▁requ	-167
▁World	-168
▁hello	-169
'。	-170
as	-171
ce	-172
id	-173
it	-174
mp	-175
nc	-176
ra	-177
▁#	-178
▁@	-179
▁|	-180
▁已	-181
▁帮	-182
任务	-183
信息	-184
分析	-185
日期	-186
智能	-187
条件	-188
格式	-189
测试	-190
类型	-191
素数	-192
计算	-193
问题	-194
验证	-195
arr	-196
ire	-197
tor	-198
▁ex	-199
▁is	-200
▁qu	-201
▁帮我	-202
可以帮	-203
icks	-204
▁装饰器	-205
代码执行	-206
机器学习	-207
▁main	-208
我需要使用	-209
arning	-210
orator	-211
▁Hello	-212
▁pivot	-213
icksort	-214
',	-215
ad	-216
do	-217
ft	-218
mm	-219
pt	-220
ue	-221
ul	-222
us	-223
▁<	-224
▁D	-225
▁r	-226
▁有	-227
▁查	-228
▁版	-229
人工	-230
今天	-231
判断	-232
回归	-233
应用	-234
快速	-235
操作	-236
新特	-237
步骤	-238
深度	-239
直接	-240
编辑	-241
自动	-242
识别	-243
语言	-244
预测	-245
():	-246
dec	-247
ear	-248
ecu	-249
ial	-250
igh	-251
ist	-252
ith	-253
per	-254
unc	-255
val	-256
▁an	-257
▁as	-258
▁lo	-259
▁te	-260
▁us	-261
▁你好	-262
▁你是	-263
▁版本	-264
▁读取	-265
▁这是	-266
什么是	-267
今天的	-268
写一个	-269
后返回	-270
新特性	-271
智能的	-272
格式是	-273
目录下	-274
ents	-275
irem	-276
self	-277
▁imp	-278
信息搜索	-279
创建成功	-280
可以帮你	-281
基准条件	-282
快速排序	-283
文件内容	-284
文件操作	-285
是一种高	-286
网页内容	-287
earch	-288
value	-289
▁用户想查	-290
今天的日期	-291
我可以帮你	-292
结果已获取	-293
▁execu	-294
▁import	-295
▁search	-296
irements	-297
decorator	-298
▁learning	-299
▁quicksort	-300
▁requirements	-301
':	-302
//	-303
:{	-304
Hu	-305
Ma	-306
co	-307
eb	-308
ep	-309
kn	-310
me	-311
od	-312
og	-313
ow	-314
pa	-315
pr	-316
▁+	-317
▁G	-318
▁I	-319
▁L	-320
▁R	-321
▁l	-322
▁t	-323
▁到	-324
▁地	-325
▁库	-326
▁根	-327
▁语	-328
主要	-329
之前	-330
修改	-331
关资	-332
分支	-333
包括	-334
回答	-335
复杂	-336
学过	-337
平均	-338
广泛	-339
我是	-340
技巧	-341
摘要	-342
支持	-343
数组	-344
整理	-345
文本	-346
时间	-347
标签	-348
模式	-349
法糖	-350
然后	-351
现在	-352
用自	-353
的子	-354
监督	-355
示例	-356
神经	-357
科学	-358
编写	-359
网络	-360
解释	-361
记录	-362
设计	-363
路径	-364
部分	-365
Hub	-366
alc	-367
all	-368
ard	-369
ase	-370
ass	-371
dge	-372
dle	-373
est	-374
fic	-375
for	-376
ine	-377
pen	-378
rap	-379
urs	-380
wor	-381
▁<=	-382
▁==	-383
▁__	-384
▁ne	-385
▁os	-386
▁sy	-387
▁分析	-388
▁创建	-389
▁地址	-390
▁学习	-391
▁当前	-392
▁根据	-393
▁的和	-394
▁获取	-395
▁计算	-396
▁这个	-397
▁验证	-398
不需要	-399
从数据	-400
关资料	-401
函数调	-402
复杂度	-403
学过的	-404
并测试	-405
是人工	-406
用自身	-407
等任务	-408
给用户	-409
计算机	-410
Mach	-411
cept	-412
ence	-413
ests	-414
ight	-415
know	-416
lass	-417
ogra	-418
tion	-419
ward	-420
▁Git	-421
▁fac	-422
▁log	-423
▁mid	-424
▁use	-425
▁什么是	-426
▁已创建	-427
▁有什么	-428
▁语法糖	-429
一个分支	-430
从数据中	-431
判断函数	-432
安装完成	-433
广泛应用	-434
指函数调	-435
数据科学	-436
标签数据	-437
深度学习	-438
监督学习	-439
目录下的	-440
直接回答	-441
相关资料	-442
神经网络	-443
编程技巧	-444
编程语言	-445
让计算机	-446
设计模式	-447
读取验证	-448
返回结果	-449
alcul	-450
hello	-451
ledge	-452
mming	-453
works	-454
▁func	-455
▁read	-456
▁self	-457
▁sort	-458
▁test	-459
▁with	-460
▁wrap	-461
▁代码执行	-462
▁创建一个	-463
▁基准条件	-464
▁是一种高	-465
▁机器学习	-466
▁网页内容	-467
▁这是一个	-468
▁递归步骤	-469
之前学过的	-470
整理后返回	-471
时间复杂度	-472
torial	-473
▁是一种高级	-474
▁用户想查看	-475
▁用户想读取	-476
▁递归是一种	-477
完成文件操作	-478
快速排序算法	-479
是人工智能的	-480
素数判断函数	-481
Machine	-482
▁GitHub	-483
▁middle	-484
▁progra	-485
▁代码执行成功	-486
▁文件创建成功	-487
信息搜索等任务	-488
指函数调用自身	-489
▁execute	-490
▁wrapper	-491
▁用户想创建一个	-492
alculator	-493
knowledge	-494
▁requests	-495
▁factorial	-496
▁递归是一种编程技巧	-497
是人工智能的一个分支	-498
▁programming	-499
'}	-500
([	-501
({	-502
)(	-503
))	-504
)。	-505
AD	-506
Ex	-507
ME	-508
My	-509
OS	-510
Qu	-511
SV	-512
])	-513
`。	-514
ax	-515
ay	-516
be	-517
br	-518
ci	-519
cs	-520
di	-521
du	-522
ey	-523
gu	-524
he	-525
im	-526
iz	-527
jo	-528
js	-529
lg	-530
md	-531
my	-532
na	-533
nt	-534
oj	-535
om	-536
ou	-537
ps	-538
pu	-539
ri	-540
rt	-541
ry	-542
so	-543
ss	-544
tt	-545
un	-546
ux	-547
ws	-548
yp	-549
yz	-550
▁*	-551
▁>	-552
▁`	-553
▁d	-554
▁y	-555
▁中	-556
▁以	-557
▁保	-558
▁决	-559
▁分	-560
▁列	-561
▁包	-562
▁合	-563
▁名	-564
▁命	-565
▁和	-566
▁图	-567
▁在	-568
▁好	-569
▁实	-570
▁将	-571
▁常	-572
▁开	-573
▁必	-574
▁把	-575
▁推	-576
▁改	-577
▁新	-578
▁无	-579
▁旧	-580
▁是	-581
▁最	-582
▁某	-583
▁游	-584
▁用	-585
▁线	-586
▁聚	-587
▁运	-588
▁选	-589
▁通	-590
▁里	-591
▁阶	-592
▁降	-593
▁🌐	-594
▁💻	-595
▁📁	-596
▁📦	-597
。{	-598
三大	-599
下扩	-600
下是	-601
下迭	-602
两个	-603
丰富	-604
为三	-605
为更	-606
了解	-607
事项	-608
互联	-609
些场	-610
人控	-611
代更	-612
会导	-613
会无	-614
你能	-615
依赖	-616
停止	-617
元素	-618
关于	-619
内置	-620
写入	-621
准库	-622
减少	-623
分组	-624
分解	-625
列表	-626
删除	-627
到了	-628
功能	-629
动态	-630
包含	-631
化等	-632
医疗	-633
即可	-634
原理	-635
变量	-636
右两	-637
名为	-638
向量	-639
否则	-640
否是	-641
告知	-642
和查	-643
在不	-644
圾邮	-645
基础	-646
声明	-647
处理	-648
大于	-649
大括	-650
大的	-651
大量	-652
如垃	-653
如房	-654
它的	-655
完整	-656
小于	-657
工作	-658
常用	-659
平台	-660
强化	-661
征数	-662
很多	-663
情况	-664
我用	-665
所有	-666
打印	-667
效的	-668
数值	-669
日志	-670
易读	-671
显式	-672
本地	-673
机森	-674
权限	-675
栈溢	-676
校验	-677
概念	-678
模块	-679
正确	-680
注意	-681
特点	-682
现的	-683
用法	-684
用的	-685
用途	-686
的吗	-687
的标	-688
等于	-689
策树	-690
简洁	-691
管理	-692
类别	-693
系统	-694
结构	-695
缓存	-696
缩进	-697
而非	-698
能够	-699
自然	-700
要素	-701
规律	-702
训练	-703
诊断	-704
试错	-705
语音	-706
过大	-707
这是	-708
进行	-709
逻辑	-710
须有	-711
领域	-712
驾驶	-713
高效	-714
'})	-715
({'	-716
://	-717
EAD	-718
Err	-719
Lin	-720
MyC	-721
SVM	-722
Web	-723
__(	-724
ace	-725
ack	-726
aft	-727
age	-728
and	-729
ant	-730
ata	-731
ate	-732
att	-733
bef	-734
cal	-735
dir	-736
dit	-737
ect	-738
eep	-739
ell	-740
elp	-741
ely	-742
ens	-743
ern	-744
ery	-745
eth	-746
ick	-747
ict	-748
ids	-749
ign	-750
ive	-751
key	-752
len	-753
lev	-754
mac	-755
mps	-756
ncy	-757
ode	-758
ont	-759
org	-760
put	-761
que	-762
rec	-763
rom	-764
rti	-765
sul	-766
tep	-767
web	-768
yze	-769
}')	-770
▁//	-771
▁Ex	-772
▁Le	-773
▁Qu	-774
▁ag	-775
▁am	-776
▁br	-777
▁do	-778
▁ef	-779
▁it	-780
▁js	-781
▁my	-782
▁of	-783
▁中的	-784
▁代码	-785
▁使用	-786
▁保存	-787
▁修改	-788
▁内容	-789
▁函数	-790
▁分类	-791
▁列出	-792
▁可以	-793
▁合并	-794
▁名称	-795
▁命令	-796
▁回归	-797
▁图像	-798
▁好的	-799
▁已将	-800
▁常见	-801
▁平均	-802
▁开发	-803
▁执行	-804
▁推荐	-805
▁支持	-806
▁改成	-807
▁最坏	-808
▁查看	-809
▁查询	-810
▁测试	-811
▁游戏	-812
▁目录	-813
▁知识	-814
▁示例	-815
▁线性	-816
▁编辑	-817
▁聚类	-818
▁自动	-819
▁解释	-820
▁运行	-821
▁选择	-822
▁通过	-823
▁里的	-824
▁阶乘	-825
▁降维	-826
下扩展	-827
为更小	-828
互联网	-829
些场景	-830
人控制	-831
件识别	-832
价预测	-833
会导致	-834
会无限	-835
你能做	-836
修改原	-837
先搜索	-838
先获取	-839
内容为	-840
内容是	-841
减少特	-842
函数的	-843
分为三	-844
到日期	-845
助用户	-846
向量机	-847
和人工	-848
和查询	-849
多步骤	-850
大括号	-851
将数据	-852
将问题	-853
左右两	-854
已学习	-855
已排序	-856
已编写	-857
库记录	-858
强大的	-859
当数组	-860
征数量	-861
文件的	-862
机森林	-863
栈溢出	-864
格式化	-865
的内容	-866
的所有	-867
的条件	-868
的用法	-869
的知识	-870
解释型	-871
跨平台	-872
通用的	-873
')`。	-874
__':	-875
alls	-876
anch	-877
ange	-878
angu	-879
back	-880
base	-881
chni	-882
code	-883
comm	-884
ctor	-885
dire	-886
docs	-887
dows	-888
fici	-889
form	-890
func	-891
here	-892
imiz	-893
init	-894
ithm	-895
join	-896
left	-897
lgor	-898
main	-899
meth	-900
name	-901
ntax	-902
odel	-903
pace	-904
page	-905
path	-906
proj	-907
read	-908
rite	-909
sign	-910
sist	-911
step	-912
sult	-913
tens	-914
ttps	-915
ural	-916
▁'__	-917
▁Dec	-918
▁MyC	-919
▁Rec	-920
▁Win	-921
▁and	-922
▁are	-923
▁can	-924
▁cre	-925
▁int	-926
▁len	-927
▁net	-928
▁opt	-929
▁run	-930
▁say	-931
▁sci	-932
▁sys	-933
▁tor	-934
▁try	-935
▁typ	-936
▁wid	-937
▁you	-938
▁以下是	-939
▁修改为	-940
▁写一个	-941
▁决策树	-942
▁实现的	-943
▁将数组	-944
▁已完成	-945
▁必须有	-946
▁新文本	-947
▁旧文本	-948
▁是否是	-949
▁查一下	-950
▁的一种	-951
▁的主要	-952
▁的代码	-953
▁的内容	-954
▁的和为	-955
▁目录下	-956
▁项目的	-957
一个基准	-958
一个网页	-959
三大类型	-960
下迭代更	-961
两个要素	-962
丰富的标	-963
主要特点	-964
代码结构	-965
代码编写	-966
你可以帮	-967
使用缩进	-968
停止递归	-969
内置大量	-970
分析代码	-971
分析结果	-972
创建文件	-973
删除文件	-974
判断素数	-975
动态类型	-976
医疗诊断	-977
告知用户	-978
基础知识	-979
声明类型	-980
大于基准	-981
如垃圾邮	-982
学习规律	-983
安装依赖	-984
完成很多	-985
完整代码	-986
工作目录	-987
已排序时	-988
常用算法	-989
强化学习	-990
执行代码	-991
执行完成	-992
排序算法	-993
搜索一下	-994
搜索结果	-995
摘要返回	-996
日志记录	-997
显式编程	-998
权限校验	-999
概念问题	-1000
注意事项	-1001
深度过大	-1002
然后测试	-1003
的子问题	-1004
的子领域	-1005
目录内容	-1006
直接返回	-1007
知识学习	-1008
简洁易读	-1009
算法原理	-1010
网页读取	-1011
而不需要	-1012
自动化等	-1013
自然语言	-1014
获取信息	-1015
试错学习	-1016
语音识别	-1017
这是一个	-1018
进行学习	-1019
逻辑回归	-1020
随机森林	-1021
项目管理	-1022
预测数值	-1023
预测类别	-1024
EADME	-1025
Error	-1026
Linux	-1027
after	-1028
alyze	-1029
ctory	-1030
dency	-1031
depen	-1032
dumps	-1033
ellig	-1034
ethod	-1035
input	-1036
level	-1037
local	-1038
macOS	-1039
pivot	-1040
print	-1041
right	-1042
stall	-1043
world	-1044
▁Deep	-1045
▁Dict	-1046
▁List	-1047
▁arti	-1048
▁case	-1049
▁code	-1050
▁cont	-1051
▁data	-1052
▁edit	-1053
▁file	-1054
▁from	-1055
▁help	-1056
▁high	-1057
▁json	-1058
▁left	-1059
▁list	-1060
▁loss	-1061
▁open	-1062
▁oper	-1063
▁patt	-1064
▁step	-1065
▁used	-1066
▁uses	-1067
▁分析一下	-1068
▁列出当前	-1069
▁创建项目	-1070
▁可以在不	-1071
▁合并结果	-1072
▁图像识别	-1073
▁学习一下	-1074
▁安装完成	-1075
▁工具搜索	-1076
▁帮我安装	-1077
▁帮我读取	-1078
▁常见用途	-1079
▁快速排序	-1080
▁推荐系统	-1081
▁搜索一下	-1082
▁搜索到了	-1083
▁搜索完成	-1084
▁搜索结果	-1085
▁文件内容	-1086
▁某些场景	-1087
▁查看当前	-1088
▁根据知识	-1089
▁深度学习	-1090
▁用户想找	-1091
▁用户想用	-1092
▁的新特性	-1093
▁目录列表	-1094
▁神经网络	-1095
▁线性回归	-1096
▁编辑成功	-1097
▁自动驾驶	-1098
▁装饰器是	-1099
▁解释一下	-1100
▁读取当前	-1101
▁这个网页	-1102
▁这是编程	-1103
▁递归排序	-1104
▁验证完成	-1105
一个智能的	-1106
下扩展功能	-1107
不需要使用	-1108
于数据科学	-1109
什么是递归	-1110
会无限递归	-1111
你能做什么	-1112
关于装饰器	-1113
内容是打印	-1114
函数的情况	-1115
分为三部分	-1116
分解为更小	-1117
变量不需要	-1118
和人工智能	-1119
和查询知识	-1120
多步骤任务	-1121
如房价预测	-1122
它让计算机	-1123
将数据分组	-1124
左右两部分	-1125
新特性包括	-1126
无监督学习	-1127
是机器学习	-1128
机器人控制	-1129
的所有文件	-1130
而非大括号	-1131
ations	-1132
before	-1133
ficial	-1134
imizer	-1135
recurs	-1136
someth	-1137
tensor	-1138
ursion	-1139
▁Quick	-1140
▁agent	-1141
▁algor	-1142
▁calls	-1143
▁class	-1144
▁https	-1145
▁langu	-1146
▁learn	-1147
▁model	-1148
▁query	-1149
▁range	-1150
▁right	-1151
▁torch	-1152
▁using	-1153
▁where	-1154
▁write	-1155
▁帮我写一个	-1156
▁库安装完成	-1157
▁我可以帮你	-1158
▁搜索互联网	-1159
▁支持向量机	-1160
▁无标签数据	-1161
▁是否是素数	-1162
▁有标签数据	-1163
▁用户想了解	-1164
▁用户想学习	-1165
▁用户想安装	-1166
▁用户想查询	-1167
▁用户想编辑	-1168
▁知识已学习	-1169
▁获取到日期	-1170
▁这个文件的	-1171
一个基准元素	-1172
下迭代更高效	-1173
丰富的标准库	-1174
主要特点包括	-1175
从数据中学习	-1176
从数据中自动	-1177
会导致栈溢出	-1178
使用神经网络	-1179
内置大量模块	-1180
减少特征数量	-1181
基础知识问题	-1182
完成很多任务	-1183
已编写并测试	-1184
效的排序算法	-1185
文件内容正确	-1186
时间复杂度为	-1187
是一种强大的	-1188
格式化后返回	-1189
然后读取验证	-1190
现在创建文件	-1191
现在读取验证	-1192
目录下的文件	-1193
直接回答即可	-1194
自然语言处理	-1195
ception	-1196
chnique	-1197
command	-1198
ficient	-1199
forward	-1200
orators	-1201
project	-1202
sistant	-1203
webpage	-1204
▁README	-1205
▁branch	-1206
▁create	-1207
▁design	-1208
▁except	-1209
▁inform	-1210
▁itself	-1211
▁method	-1212
▁neural	-1213
▁result	-1214
▁syntax	-1215
▁typing	-1216
▁widely	-1217
▁函数判断素数	-1218
▁创建一个名为	-1219
▁命令执行完成	-1220
▁工具执行代码	-1221
▁帮我搜索一下	-1222
▁执行完整代码	-1223
▁有什么新特性	-1224
▁根据搜索结果	-1225
▁用户想写一个	-1226
▁素数判断函数	-1227
▁网页内容摘要	-1228
▁装饰器的用法	-1229
▁读取网页内容	-1230
▁递归深度过大	-1231
▁通过试错学习	-1232
▁项目创建成功	-1233
▁验证文件内容	-1234
一个智能的本地	-1235
不需要使用工具	-1236
之前学过的知识	-1237
你可以帮助用户	-1238
停止递归的条件	-1239
先搜索相关资料	-1240
写入今天的日期	-1241
否则会无限递归	-1242
如垃圾邮件识别	-1243
它让计算机能够	-1244
当数组已排序时	-1245
我可以帮你的吗	-1246
直接返回给用户	-1247
通用的编程语言	-1248
backward	-1249
▁Machine	-1250
▁MyClass	-1251
▁Windows	-1252
▁analyze	-1253
▁content	-1254
▁install	-1255
▁pattern	-1256
▁science	-1257
▁sorting	-1258
▁什么是机器学习	-1259
▁分析结果已获取	-1260
▁可以在不修改原	-1261
▁学习和查询知识	-1262
▁必须有基准条件	-1263
▁搜索结果已获取	-1264
▁文件内容已获取	-1265
▁有标签数据训练	-1266
▁查询结果已获取	-1267
▁根据知识库记录	-1268
▁用户想分析代码	-1269
▁的一种设计模式	-1270
▁的代码分析结果	-1271
▁目录下创建一个	-1272
▁目录列表已获取	-1273
▁网页内容已获取	-1274
▁获取今天的日期	-1275
▁这个网页的内容	-1276
先获取今天的日期	-1277
关于装饰器的知识	-1278
它的主要特点包括	-1279
将问题分解为更小	-1280
平均时间复杂度为	-1281
整理后返回给用户	-1282
而不需要显式编程	-1283
directory	-1284
elligence	-1285
quicksort	-1286
recursive	-1287
something	-1288
workspace	-1289
▁Learning	-1290
▁function	-1291
▁language	-1292
▁networks	-1293
▁列出当前工作目录	-1294
▁将数组分为三部分	-1295
▁当前目录下的文件	-1296
▁快速排序是一种高	-1297
▁搜索到了相关资料	-1298
▁查一下之前学过的	-1299
▁的主要新特性包括	-1300
▁读取当前目录下的	-1301
▁这是编程概念问题	-1302
▁选择一个基准元素	-1303
使用缩进而非大括号	-1304
变量不需要声明类型	-1305
广泛应用于数据科学	-1306
是机器学习的子领域	-1307
素数判断函数并测试	-1308
calculator	-1309
dependency	-1310
▁Exception	-1311
▁Recursion	-1312
▁algorithm	-1313
▁assistant	-1314
▁efficient	-1315
▁execution	-1316
▁optimizer	-1317
▁technique	-1318
▁实现的快速排序算法	-1319
▁搜索互联网获取信息	-1320
▁是一种高级编程语言	-1321
▁用户想查看目录内容	-1322
▁用户想编辑文件内容	-1323
▁用户想读取一个网页	-1324
▁装饰器是一种强大的	-1325
▁解释一下什么是递归	-1326
▁这个文件的代码结构	-1327
▁这是一个多步骤任务	-1328
▁递归排序左右两部分	-1329
从数据中自动学习规律	-1330
使用神经网络进行学习	-1331
函数的情况下扩展功能	-1332
让计算机从数据中学习	-1333
▁Decorators	-1334
▁artificial	-1335
▁calculator	-1336
▁operations	-1337
▁有什么我可以帮你的吗	-1338
▁某些场景下迭代更高效	-1339
▁这是一个基础知识问题	-1340
我可以帮你完成很多任务	-1341
▁information	-1342
▁帮我写一个快速排序算法	-1343
▁我可以帮你完成文件操作	-1344
将问题分解为更小的子问题	-1345
▁intelligence	-1346
▁用户想查询之前学过的知识	-1347
▁素数判断函数已编写并测试	-1348
▁递归深度过大会导致栈溢出	-1349
你可以帮助用户完成文件操作	-1350
▁列出当前工作目录的所有文件	-1351
▁装饰器是一种强大的设计模式	-1352
广泛应用于数据科学和人工智能	-1353
▁快速排序是一种高效的排序算法	-1354
▁机器学习是人工智能的一个分支	-1355
▁深度学习使用神经网络进行学习	-1356
▁用户想写一个素数判断函数并测试	-1357
'_	-1358
)`	-1359
*:	-1360
:*	-1361
:/	-1362
<=	-1363
==	-1364
Cl	-1365
Co	-1366
DM	-1367
De	-1368
Di	-1369
EA	-1370
Er	-1371
Gi	-1372
He	-1373
Le	-1374
Li	-1375
Om	-1376
Py	-1377
RE	-1378
Re	-1379
VM	-1380
We	-1381
Wi	-1382
Wo	-1383
_'	-1384
_(	-1385
af	-1386
ag	-1387
ai	-1388
ap	-1389
ba	-1390
bp	-1391
cO	-1392
ca	-1393
ck	-1394
cl	-1395
cr	-1396
ct	-1397
cu	-1398
cy	-1399
am	-1400
da	-1401
dd	-1402
dg	-1403
dl	-1404
ds	-1405
ea	-1406
ed	-1407
ee	-1408
ef	-1409
em	-1410
eq	-1411
es	-1412
et	-1413
eu	-1414
ev	-1415
ex	-1416
fa	-1417
ff	-1418
fi	-1419
fo	-1420
fr	-1421
fu	-1422
gh	-1423
gn	-1424
go	-1425
gr	-1426
hi	-1427
hm	-1428
hn	-1429
ho	-1430
ht	-1431
iC	-1432
ia	-1433
ie	-1434
if	-1435
il	-1436
io	-1437
iq	-1438
ir	-1439
is	-1440
je	-1441
ke	-1442
kw	-1443
la	-1444
lc	-1445
lf	-1446
li	-1447
ll	-1448
lp	-1449
ls	-1450
lt	-1451
lu	-1452
ly	-1453
ma	-1454
mi	-1455
mn	-1456
mo	-1457
nd	-1458
ne	-1459
nf	-1460
ng	-1461
no	-1462
np	-1463
ns	-1464
nu	-1465
ob	-1466
oc	-1467
of	-1468
oi	-1469
op	-1470
os	-1471
pe	-1472
pi	-1473
po	-1474
pp	-1475
rc	-1476
rd	-1477
rg	-1478
rk	-1479
rl	-1480
rm	-1481
rn	-1482
ro	-1483
rs	-1484
ru	-1485
rv	-1486
rw	-1487
sa	-1488
sc	-1489
se	-1490
si	-1491
sp	-1492
su	-1493
sy	-1494
tH	-1495
ta	-1496
ti	-1497
to	-1498
tp	-1499
tr	-1500
ts	-1501
tu	-1502
tw	-1503
ty	-1504
ua	-1505
ub	-1506
ui	-1507
um	-1508
ut	-1509
va	-1510
ve	-1511
vo	-1512
wa	-1513
we	-1514
wh	-1515
wi	-1516
wl	-1517
wo	-1518
wr	-1519
xc	-1520
xe	-1521
xt	-1522
yC	-1523
yn	-1524
yo	-1525
ys	-1526
yt	-1527
ze	-1528
{'	-1529
}'	-1530
})	-1531
▁/	-1532
▁A	-1533
▁E	-1534
▁H	-1535
▁M	-1536
▁P	-1537
▁Q	-1538
▁_	-1539
▁b	-1540
▁j	-1541
▁q	-1542
▁u	-1543
▁什	-1544
▁代	-1545
▁使	-1546
▁修	-1547
▁内	-1548
▁写	-1549
▁函	-1550
▁创	-1551
▁可	-1552
▁回	-1553
▁基	-1554
▁学	-1555
▁安	-1556
▁工	-1557
▁平	-1558
▁当	-1559
▁快	-1560
▁我	-1561
▁执	-1562
▁搜	-1563
▁支	-1564
▁文	-1565
▁机	-1566
▁测	-1567
▁深	-1568
▁目	-1569
▁知	-1570
▁示	-1571
▁神	-1572
▁素	-1573
▁编	-1574
▁网	-1575
▁自	-1576
▁获	-1577
▁装	-1578
▁解	-1579
▁计	-1580
▁读	-1581
▁递	-1582
▁项	-1583
▁验	-1584
三部	-1585
下之	-1586
下什	-1587
下创	-1588
下的	-1589
不修	-1590
不需	-1591
两部	-1592
个分	-1593
个名	-1594
个基	-1595
个多	-1596
个快	-1597
个文	-1598
个智	-1599
个素	-1600
个网	-1601
个要	-1602
中学	-1603
中的	-1604
中自	-1605
么我	-1606
么新	-1607
么是	-1608
习一	-1609
习使	-1610
习和	-1611
习是	-1612
习的	-1613
习规	-1614
了相	-1615
于基	-1616
于数	-1617
于装	-1618
从数	-1619
令执	-1620
以下	-1621
以在	-1622
以帮	-1623
件内	-1624
件创	-1625
件操	-1626
件的	-1627
件识	-1628
价预	-1629
作目	-1630
你可	-1631
你好	-1632
你完	-1633
你是	-1634
你的	-1635
保存	-1636
做什	-1637
像识	-1638
先搜	-1639
先获	-1640
入今	-1641
具执	-1642
具搜	-1643
写一	-1644
写并	-1645
决策	-1646
况下	-1647
准元	-1648
准条	-1649
出当	-1650
分为	-1651
分类	-1652
列出	-1653
则会	-1654
到日	-1655
前学	-1656
前工	-1657
前目	-1658
动化	-1659
动学	-1660
动驾	-1661
助手	-1662
助用	-1663
化后	-1664
化学	-1665
原函	-1666
取一	-1667
取今	-1668
取信	-1669
取到	-1670
取当	-1671
取网	-1672
取验	-1673
合并	-1674
名称	-1675
后测	-1676
后读	-1677
后返	-1678
命令	-1679
和为	-1680
和人	-1681
器人	-1682
器学	-1683
器是	-1684
器的	-1685
回结	-1686
回给	-1687
图像	-1688
在创	-1689
在读	-1690
地址	-1691
场景	-1692
均时	-1693
垃圾	-1694
多任	-1695
多步	-1696
够从	-1697
大会	-1698
大类	-1699
天的	-1700
好的	-1701
子问	-1702
子领	-1703
学和	-1704
它让	-1705
实现	-1706
容为	-1707
容已	-1708
容摘	-1709
容是	-1710
容正	-1711
富的	-1712
导致	-1713
将数	-1714
将问	-1715
小的	-1716
少特	-1717
展功	-1718
工智	-1719
左右	-1720
已创	-1721
已学	-1722
已完	-1723
已将	-1724
已排	-1725
已编	-1726
已获	-1727
帮你	-1728
帮助	-1729
帮我	-1730
常见	-1731
并测	-1732
并结	-1733
序左	-1734
序时	-1735
序是	-1736
序算	-1737
库安	-1738
库记	-1739
度为	-1740
度学	-1741
度过	-1742
建一	-1743
建成	-1744
建文	-1745
建项	-1746
开发	-1747
式化	-1748
式是	-1749
式编	-1750
强大	-1751
归排	-1752
归是	-1753
归步	-1754
归深	-1755
归的	-1756
当数	-1757
录下	-1758
录内	-1759
录列	-1760
录的	-1761
必须	-1762
志记	-1763
念问	-1764
态类	-1765
性包	-1766
性回	-1767
息搜	-1768
想了	-1769
想写	-1770
想分	-1771
想创	-1772
想学	-1773
想安	-1774
想找	-1775
想查	-1776
想用	-1777
想编	-1778
想读	-1779
意事	-1780
成很	-1781
成文	-1782
我写	-1783
我可	-1784
我安	-1785
我搜	-1786
我读	-1787
我需	-1788
户完	-1789
户想	-1790
房价	-1791
扩展	-1792
择一	-1793
括号	-1794
持向	-1795
指函	-1796
据中	-1797
据分	-1798
据搜	-1799
据知	-1800
据科	-1801
据训	-1802
接回	-1803
接返	-1804
控制	-1805
推荐	-1806
改为	-1807
改原	-1808
改成	-1809
数判	-1810
数已	-1811
数并	-1812
数的	-1813
数调	-1814
数量	-1815
整代	-1816
断函	-1817
断素	-1818
新文	-1819
无标	-1820
无监	-1821
无限	-1822
旧文	-1823
明类	-1824
是一	-1825
是人	-1826
是否	-1827
是打	-1828
是机	-1829
是素	-1830
是编	-1831
是递	-1832
景下	-1833
更小	-1834
更高	-1835
最坏	-1836
有什	-1837
有基	-1838
有文	-1839
有标	-1840
机从	-1841
机能	-1842
杂度	-1843
析一	-1844
析代	-1845
析结	-1846
果已	-1847
某些	-1848
查一	-1849
查看	-1850
查询	-1851
标准	-1852
根据	-1853
森林	-1854
止递	-1855
法原	-1856
泛应	-1857
洁易	-1858
测数	-1859
测类	-1860
游戏	-1861
溢出	-1862
点包	-1863
然语	-1864
版本	-1865
特征	-1866
特性	-1867
理后	-1868
用于	-1869
用工	-1870
用神	-1871
用算	-1872
用缩	-1873
疗诊	-1874
的一	-1875
的主	-1876
的代	-1877
的关	-1878
的内	-1879
的和	-1880
的快	-1881
的情	-1882
的所	-1883
的排	-1884
的文	-1885
的新	-1886
的日	-1887
的本	-1888
的条	-1889
的用	-1890
的知	-1891
的编	-1892
的设	-1893
目创	-1894
目的	-1895
目管	-1896
相关	-1897
看当	-1898
看目	-1899
督学	-1900
知用	-1901
码分	-1902
码执	-1903
码结	-1904
码编	-1905
础知	-1906
种强	-1907
种编	-1908
种设	-1909
种高	-1910
程技	-1911
程概	-1912
程语	-1913
等任	-1914
答即	-1915
签数	-1916
算机	-1917
索一	-1918
索互	-1919
索到	-1920
索完	-1921
索相	-1922
索等	-1923
索结	-1924
级编	-1925
线性	-1926
组分	-1927
组已	-1928
经网	-1929
给用	-1930
络进	-1931
网获	-1932
置大	-1933
而不	-1934
联网	-1935
聚类	-1936
能做	-1937
能的	-1938
自身	-1939
致栈	-1940
荐系	-1941
行代	-1942
行学	-1943
行完	-1944
行成	-1945
表已	-1946
装依	-1947
装完	-1948
要使	-1949
要声	-1950
要新	-1951
要显	-1952
要特	-1953
要返	-1954
见用	-1955
解为	-1956
言处	-1957
计模	-1958
让计	-1959
证完	-1960
证文	-1961
识学	-1962
识已	-1963
识库	-1964
识问	-1965
询之	-1966
询知	-1967
询结	-1968
语法	-1969
调用	-1970
资料	-1971
跨平	-1972
辑回	-1973
辑成	-1974
辑文	-1975
过的	-1976
过试	-1977
运行	-1978
这个	-1979
进而	-1980
迭代	-1981
选择	-1982
通用	-1983
通过	-1984
速排	-1985
邮件	-1986
释一	-1987
释型	-1988
里的	-1989
量不	-1990
量机	-1991
量模	-1992
错学	-1993
间复	-1994
阶乘	-1995
降维	-1996
限校	-1997
限递	-1998
除文	-1999
随机	-2000
非大	-2001
音识	-2002
页内	-2003
页的	-2004
页读	-2005
题分	-2006
饰器	-2007
骤任	-2008
高级	-2009
')`	-2010
ADM	-2011
Cor	-2012
Dec	-2013
Dic	-2014
Git	-2015
Hel	-2016
Rec	-2017
Win	-2018
Wor	-2019
__'	-2020
acO	-2021
ach	-2022
act	-2023
alu	-2024
aly	-2025
ame	-2026
ang	-2027
arc	-2028
are	-2029
ath	-2030
ati	-2031
bac	-2032
bas	-2033
cep	-2034
con	-2035
cor	-2036
cre	-2037
cul	-2038
cur	-2039
dat	-2040
def	-2041
del	-2042
den	-2043
dep	-2044
des	-2045
doc	-2046
dow	-2047
ebp	-2048
ech	-2049
enc	-2050
ere	-2051
eur	-2052
gen	-2053
gor	-2054
gra	-2055
gua	-2056
hel	-2057
hin	-2058
hni	-2059
hon	-2060
ici	-2061
idd	-2062
ien	-2063
imi	-2064
ind	-2065
inf	-2066
ini	-2067
inp	-2068
ins	-2069
inu	-2070
iqu	-2071
itH	-2072
ite	-2073
ivo	-2074
jec	-2075
kno	-2076
ksp	-2077
lan	-2078
las	-2079
lat	-2080
lea	-2081
led	-2082
lef	-2083
lig	-2084
loc	-2085
log	-2086
los	-2087
man	-2088
mat	-2089
men	-2090
min	-2091
nal	-2092
nch	-2093
nct	-2094
nde	-2095
niC	-2096
nin	-2097
oin	-2098
ome	-2099
omm	-2100
ons	-2101
ora	-2102
orc	-2103
ori	-2104
ork	-2105
orl	-2106
orm	-2107
ors	-2108
orw	-2109
ory	-2110
pac	-2111
pat	-2112
pin	-2113
piv	-2114
por	-2115
pro	-2116
pti	-2117
qui	-2118
ral	-2119
ram	-2120
ran	-2121
rat	-2122
rea	-2123
rem	-2124
req	-2125
res	-2126
ret	-2127
rig	-2128
rin	-2129
ror	-2130
sel	-2131
ser	-2132
sig	-2133
sin	-2134
siv	-2135
son	-2136
sor	-2137
sta	-2138
ste	-2139
sts	-2140
tal	-2141
tax	-2142
tel	-2143
ten	-2144
ter	-2145
thm	-2146
tho	-2147
tin	-2148
tps	-2149
uer	-2150
uic	-2151
ult	-2152
ump	-2153
urn	-2154
use	-2155
ute	-2156
vat	-2157
vel	-2158
war	-2159
wle	-2160
xce	-2161
xec	-2162
you	-2163
zer	-2164
▁'_	-2165
▁De	-2166
▁Ma	-2167
▁My	-2168
▁Om	-2169
▁RE	-2170
▁``	-2171
▁al	-2172
▁ar	-2173
▁ca	-2174
▁cl	-2175
▁co	-2176
▁ed	-2177
▁fa	-2178
▁fi	-2179
▁fr	-2180
▁fu	-2181
▁hi	-2182
▁ht	-2183
▁im	-2184
▁ma	-2185
▁me	-2186
▁mi	-2187
▁mo	-2188
▁op	-2189
▁pi	-2190
▁ru	-2191
▁sa	-2192
▁sc	-2193
▁se	-2194
▁st	-2195
▁tr	-2196
▁ty	-2197
▁wh	-2198
▁wi	-2199
▁wr	-2200
▁什么	-2201
▁以下	-2202
▁决策	-2203
▁基准	-2204
▁安装	-2205
▁实现	-2206
▁必须	-2207
▁快速	-2208
▁是否	-2209
▁有标	-2210
▁机器	-2211
▁某些	-2212
▁深度	-2213
▁的一	-2214
▁的主	-2215
▁的新	-2216
▁神经	-2217
▁素数	-2218
▁网页	-2219
▁装饰	-2220
▁语法	-2221
一下之	-2222
一下什	-2223
一个分	-2224
一个名	-2225
一个基	-2226
一个多	-2227
一个快	-2228
一个智	-2229
一个素	-2230
一个网	-2231
一种强	-2232
一种编	-2233
一种设	-2234
一种高	-2235
三部分	-2236
下创建	-2237
下迭代	-2238
不修改	-2239
两个要	-2240
两部分	-2241
个文件	-2242
个网页	-2243
中学习	-2244
中自动	-2245
丰富的	-2246
主要特	-2247
之前学	-2248
习使用	-2249
于基准	-2250
于数据	-2251
于装饰	-2252
什么我	-2253
什么新	-2254
代更高	-2255
代码分	-2256
代码执	-2257
代码结	-2258
代码编	-2259
令执行	-2260
作目录	-2261
你可以	-2262
你完成	-2263
使用工	-2264
使用神	-2265
使用缩	-2266
修改为	-2267
做什么	-2268
像识别	-2269
入今天	-2270
内容已	-2271
内容摘	-2272
内容正	-2273
内置大	-2274
况下扩	-2275
出当前	-2276
函数判	-2277
函数已	-2278
函数并	-2279
则会无	-2280
创建成	-2281
创建项	-2282
前目录	-2283
动学习	-2284
化学习	-2285
医疗诊	-2286
▁	-2287
e	-2288
o	-2289
t	-2290
r	-2291
n	-2292
i	-2293
a	-2294
l	-2295
*	-2296
s	-2297
,	-2298
。	-2299
h	-2300
.	-2301
:	-2302
c	-2303
y	-2304
p	-2305
用	-2306
d	-2307
f	-2308
(	-2309
)	-2310
u	-2311
m	-2312
的	-2313
'	-2314
_	-2315
一	-2316
是	-2317
g	-2318
P	-2319
件	-2320
1	-2321
、	-2322
文	-2323
x	-2324
学	-2325
v	-2326
数	-2327
-	-2328
`	-2329
b	-2330
个	-2331
使	-2332
取	-2333
户	-2334
习	-2335
工	-2336
w	-2337
成	-2338
想	-2339
2	-2340
=	-2341
具	-2342
内	-2343
创	-2344
建	-2345
我	-2346
{	-2347
}	-2348
容	-2349
已	-2350
搜	-2351
目	-2352
索	-2353
3	-2354
O	-2355
下	-2356
代	-2357
分	-2358
回	-2359
归	-2360
要	-2361
I	-2362
k	-2363
q	-2364
你	-2365
码	-2366
编	-2367
A	-2368
H	-2369
器	-2370
完	-2371
结	-2372
获	-2373
装	-2374
识	-2375
读	-2376
C	-2377
—	-2378
据	-2379
机	-2380
果	-2381
算	-2382
网	-2383
行	-2384
递	-2385
0	-2386
帮	-2387
录	-2388
法	-2389
知	-2390
项	-2391
W	-2392
[	-2393
]	-2394
为	-2395
前	-2396
功	-2397
助	-2398
式	-2399
执	-2400
查	-2401
测	-2402
种	-2403
类	-2404
能	-2405
返	-2406
需	-2407
/	-2408
么	-2409
什	-2410
以	-2411
写	-2412
准	-2413
函	-2414
可	-2415
基	-2416
大	-2417
序	-2418
当	-2419
手	-2420
排	-2421
本	-2422
程	-2423
素	-2424
自	-2425
计	-2426
语	-2427
这	-2428
页	-2429
M	-2430
于	-2431
后	-2432
和	-2433
型	-2434
安	-2435
度	-2436
日	-2437
有	-2438
特	-2439
理	-2440
试	-2441
饰	-2442
验	-2443
#	-2444
?	-2445
@	-2446
D	-2447
E	-2448
|	-2449
不	-2450
人	-2451
任	-2452
作	-2453
信	-2454
别	-2455
到	-2456
务	-2457
动	-2458
包	-2459
在	-2460
好	-2461
将	-2462
库	-2463
性	-2464
息	-2465
支	-2466
断	-2467
新	-2468
智	-2469
期	-2470
条	-2471
析	-2472
格	-2473
等	-2474
解	-2475
证	-2476
辑	-2477
过	-2478
量	-2479
问	-2480
题	-2481
高	-2482
<	-2483
L	-2484
j	-2485
中	-2486
今	-2487
关	-2488
判	-2489
化	-2490
地	-2491
天	-2492
平	-2493
并	-2494
应	-2495
快	-2496
括	-2497
接	-2498
操	-2499
改	-2500
整	-2501
无	-2502
时	-2503
标	-2504
模	-2505
步	-2506
深	-2507
然	-2508
版	-2509
现	-2510
直	-2511
看	-2512
组	-2513
言	-2514
询	-2515
速	-2516
预	-2517
骤	-2518
+	-2519
4	-2520
6	-2521
8	-2522
G	-2523
R	-2524
S	-2525
z	-2526
三	-2527
两	-2528
主	-2529
之	-2530
了	-2531
从	-2532
会	-2533
例	-2534
修	-2535
先	-2536
出	-2537
列	-2538
原	-2539
名	-2540
否	-2541
址	-2542
均	-2543
复	-2544
多	-2545
如	-2546
子	-2547
存	-2548
它	-2549
小	-2550
巧	-2551
常	-2552
广	-2553
强	-2554
径	-2555
技	-2556
持	-2557
指	-2558
摘	-2559
效	-2560
料	-2561
更	-2562
杂	-2563
根	-2564
泛	-2565
监	-2566
相	-2567
督	-2568
示	-2569
神	-2570
科	-2571
答	-2572
签	-2573
糖	-2574
级	-2575
经	-2576
给	-2577
络	-2578
而	-2579
让	-2580
记	-2581
设	-2582
调	-2583
资	-2584
路	-2585
身	-2586
进	-2587
通	-2588
部	-2589
释	-2590
间	-2591
限	-2592
!	-2593
5	-2594
7	-2595
>	-2596
Q	-2597
V	-2598
丰	-2599
乘	-2600
事	-2601
互	-2602
些	-2603
令	-2604
价	-2605
依	-2606
保	-2607
值	-2608
做	-2609
停	-2610
像	-2611
元	-2612
入	-2613
决	-2614
况	-2615
减	-2616
则	-2617
删	-2618
制	-2619
医	-2620
印	-2621
即	-2622
发	-2623
变	-2624
台	-2625
右	-2626
号	-2627
合	-2628
向	-2629
吗	-2630
含	-2631
告	-2632
命	-2633
图	-2634
场	-2635
圾	-2636
坏	-2637
块	-2638
垃	-2639
域	-2640
声	-2641
处	-2642
够	-2643
实	-2644
富	-2645
导	-2646
少	-2647
展	-2648
左	-2649
开	-2650
征	-2651
很	-2652
律	-2653
必	-2654
志	-2655
念	-2656
态	-2657
情	-2658
意	-2659
戏	-2660
房	-2661
所	-2662
打	-2663
扩	-2664
找	-2665
把	-2666
择	-2667
控	-2668
推	-2669
旧	-2670
明	-2671
易	-2672
显	-2673
景	-2674
最	-2675
权	-2676
构	-2677
林	-2678
某	-2679
栈	-2680
树	-2681
校	-2682
森	-2683
概	-2684
止	-2685
正	-2686
注	-2687
洁	-2688
游	-2689
溢	-2690
点	-2691
疗	-2692
础	-2693
确	-2694
称	-2695
策	-2696
简	-2697
管	-2698
系	-2699
线	-2700
练	-2701
统	-2702
维	-2703
缓	-2704
缩	-2705
置	-2706
联	-2707
聚	-2708
致	-2709
荐	-2710
表	-2711
见	-2712
规	-2713
训	-2714
诊	-2715
赖	-2716
跨	-2717
运	-2718
迭	-2719
选	-2720
途	-2721
逻	-2722
邮	-2723
里	-2724
错	-2725
阶	-2726
降	-2727
除	-2728
随	-2729
非	-2730
音	-2731
须	-2732
领	-2733
驶	-2734
驾	-2735
🌐	-2736
💻	-2737
📁	-2738
📦	-2739
